0000000010011111
1111011100000010
1111100010001000
0000000000000000
1111110110111100
1111100010000101
1111100011011010
0000000001001111
0000000100011110
0000000010010010
0000000101000000
1111110100010100
1111100101000010
1111101010111000
0000000111110000
1111101011010111
0000000001101111
0000000001011111
0000001010111011
0000000010010101
0000100000100101
1111100111101011
0000000010101111
1111110100100001
1111101000111110
1111101100000001
1111110001110111
1111101000110000
1111100100000000
0000000000100111
0000000101001111
0000010000101010
1111110100101110
1111100010010100
0000001100010001
0000000111010100
1111111100100001
1111110111101000
0000000010100001
1111000111010111
0000010000000010
0000001011000100
1111111110010111
1111110110011100
1111111001110110
1111111011001110
0000001010111101
1111101001110100
0000001011000001
0000000010111110
0000010100101100
0000001100101001
0000001100001001
1111011100000001
1111110101110010
1111101101110100
0000001001010011
0000001111110100
1111111101001001
0000000011101110
1111110011011001
1111101000001101
0000001101000111
1111110111101000
0000001001111000
0000000010000011
1111110101110000
1111111111010111
0000001110110100
0000000001110110
1111110010100001
1111011110110110
1111100011111111
0000000000010100
1111011111101000
0000001000011001
1111011100101101
1111100100110011
0000001010010101
1111101111111110
0000000011011110
0000000010010101
0000000011100001
1111110001101111
1111111110000111
0000000000111010
1111111111000100
0000100000100001
1111110101001110
1111110110110101
1111110100001010
0000001110100001
1111100111101000
1111110011110111
1111110010111111
0000010010100011
1111011110000100
1111111101000100
0000000101100000
1111100100000000
1111111101001101
0000001011110111
0000000110110001
1111111100111001
1111111010101111
1111111101101110
1111111111000011
1111110110011001
0000000010000111
1111110010010000
0001000000110001
1111100110110000
0000000100011011
0000001101010001
1111111001011101
1111111010011011
0000000101101010
0000001100101000
1111110010011000
1111111001101011
1111111110110111
0000001111101111
0000000010110010
1111100101110001
1111011010100110
1111100010101010
1111111011100110
1110111011110111
1111011111011001
0000000000110011
0000000100011101
0000000110001111
1111111111001100
1111101100111101
0000000011000010
1111101101110011
0000000101100101
1111111110110100
0000000101011100
0000000111010110
1111110110100101
1111111000010110
1111110101001100
0000100101110101
0000010000100001
1111111111001101
0000000111001001
1111110110011011
1111111001010101
1111011011100011
1111110100110110
1111111111110110
1111100110000111
0000001110111100
1111110011101000
1111110101101010
1111100010000000
1111111011111010
1111110010000011
1111111001110010
0000000000000001
1111110001010001
1111111101010010
1111111110100001
0000000001111111
0000001111001100
1111110010010001
0000000001010101
0000001000110001
1111110111100010
0000001101001100
1111111110001001
1111111101100011
1111101100010010
1111111110101010
1111111110000101
0000000011110000
0000010100101010
0000000000001010
0000010010011101
0000000100111011
0000101100000001
1111110100110100
1111011111000000
0000001001010101
1111101100101111
0000000000111011
1111010000111100
1111110110011110
0000000001011111
1111110111000101
1111110101001001
1111110100101010
1111111011001011
0000000100100111
1111111001011110
0000000111010101
0000000010011111
1111110000100010
0000000111011001
0000001001111100
0000000011110100
1111110111110101
0000001010001100
1111100000100000
0000000001010010
0000000110011000
1111101101110110
0000000011000011
1111110010101010
0000001100111001
1111111111000011
0000000011110101
1111111100101000
0000010100111110
0000001001111011
1111110111010000
0000000001000010
0000000101000101
1111111111111110
0000000011101011
0000000000110001
1111111001010000
0000001011000100
0000010000000001
0000000001001110
0000000000110100
0000000010001000
1111111000101111
0000000010111111
0000010001010110
0000000110100101
1111110111001111
0000100010101010
0000001100100100
1111111011010110
0000010101100100
0000011010011010
1111100111011101
1111110110100001
1111100001100101
1111101111100100
0000000100011010
1111110010000110
1111111011101010
1111110100010000
1111011011101010
0000000000011111
1111101110001001
1111011010111110
1111100101001101
1111101000011110
1111110000101111
1111100010110100
0000000001111100
1111101010101101
0000000100101000
1111111111101010
0000001010001010
1111011101011100
0000001111110011
0000000001000010
1111111101100010
1111010001101101
0000000111011101
1111110101000101
1111111100000000
1111011010000100
1111111111010000
1111100101001001
1111100001110001
1111110100000011
0000000110001011
1111111011001110
0000010110011100
0000010001101110
0000000000101000
0000000010000101
0000000010010001
0000000110100110
0000000111111110
1111111001001011
1111111111100111
1111011110000101
0000001011000110
1111111001111010
0000011111001001
0000000100101111
1111011111000010
0000010101101111
0000001011110011
1111111000011001
0000000011000100
0000000101111000
0000001100110001
1111010111110101
0000010101000001
0000000100001111
0000000011010010
1111110101000110